{
  "version": "1.0",
  "truncation": null,
  "padding": null,
  "added_tokens": [
    {
      "id": 0,
      "content": "[UNK]",
      "single_word": false,
      "lstrip": false,
      "rstrip": false,
      "normalized": false,
      "special": true
    },
    {
      "id": 1,
      "content": "[BOS]",
      "single_word": false,
      "lstrip": false,
      "rstrip": false,
      "normalized": false,
      "special": true
    },
    {
      "id": 2,
      "content": "[EOS]",
      "single_word": false,
      "lstrip": false,
      "rstrip": false,
      "normalized": false,
      "special": true
    }
  ],
  "normalizer": {
    "type": "Sequence",
    "normalizers": [
      {
        "type": "NFD"
      },
      {
        "type": "StripAccents"
      },
      {
        "type": "Lowercase"
      }
    ]
  },
  "pre_tokenizer": {
    "type": "Sequence",
    "pretokenizers": [
      {
        "type": "Punctuation",
        "behavior": "Isolated"
      },
      {
        "type": "Whitespace"
      },
      {
        "type": "Digits",
        "individual_digits": true
      }
    ]
  },
  "post_processor": {
    "type": "TemplateProcessing",
    "single": [
      {
        "SpecialToken": {
          "id": "[BOS]",
          "type_id": 0
        }
      },
      {
        "Sequence": {
          "id": "A",
          "type_id": 0
        }
      }
    ],
    "pair": [
      {
        "Sequence": {
          "id": "A",
          "type_id": 0
        }
      },
      {
        "Sequence": {
          "id": "B",
          "type_id": 1
        }
      }
    ],
    "special_tokens": {
      "[BOS]": {
        "id": "[BOS]",
        "ids": [
          1
        ],
        "tokens": [
          "[BOS]"
        ]
      }
    }
  },
  "decoder": null,
  "model": {
    "type": "WordPiece",
    "unk_token": "[UNK]",
    "continuing_subword_prefix": "##",
    "max_input_chars_per_word": 100,
    "vocab": {
      "[UNK]": 0,
      "[BOS]": 1,
      "[EOS]": 2,
      "!": 3,
      "\"": 4,
      "#": 5,
      "$": 6,
      "%": 7,
      "&": 8,
      "'": 9,
      "(": 10,
      ")": 11,
      "*": 12,
      "+": 13,
      ",": 14,
      "-": 15,
      ".": 16,
      "/": 17,
      "0": 18,
      "1": 19,
      "2": 20,
      "3": 21,
      "4": 22,
      "5": 23,
      "6": 24,
      "7": 25,
      "8": 26,
      "9": 27,
      ":": 28,
      ";": 29,
      "<": 30,
      "=": 31,
      ">": 32,
      "?": 33,
      "@": 34,
      "[": 35,
      "\\": 36,
      "]": 37,
      "_": 38,
      "`": 39,
      "a": 40,
      "b": 41,
      "c": 42,
      "d": 43,
      "e": 44,
      "f": 45,
      "g": 46,
      "h": 47,
      "i": 48,
      "j": 49,
      "k": 50,
      "l": 51,
      "m": 52,
      "n": 53,
      "o": 54,
      "p": 55,
      "q": 56,
      "r": 57,
      "s": 58,
      "t": 59,
      "u": 60,
      "v": 61,
      "w": 62,
      "x": 63,
      "y": 64,
      "z": 65,
      "{": 66,
      "|": 67,
      "}": 68,
      "~": 69,
      "##h": 70,
      "##a": 71,
      "##r": 72,
      "##o": 73,
      "##n": 74,
      "##k": 75,
      "##i": 76,
      "##g": 77,
      "##v": 78,
      "##e": 79,
      "##u": 80,
      "##l": 81,
      "##w": 82,
      "##f": 83,
      "##y": 84,
      "##p": 85,
      "##d": 86,
      "##m": 87,
      "##b": 88,
      "##s": 89,
      "##t": 90,
      "##c": 91,
      "##z": 92,
      "##j": 93,
      "##q": 94,
      "##x": 95,
      "##he": 96,
      "the": 97,
      "##nd": 98,
      "##ed": 99,
      "and": 100,
      "to": 101,
      "##er": 102,
      "wa": 103,
      "##ou": 104,
      "##in": 105,
      "he": 106,
      "##re": 107,
      "was": 108,
      "sa": 109,
      "##ing": 110,
      "##om": 111,
      "she": 112,
      "##ar": 113,
      "##il": 114,
      "##it": 115,
      "##ay": 116,
      "it": 117,
      "##id": 118,
      "##at": 119,
      "they": 120,
      "ha": 121,
      "##en": 122,
      "##is": 123,
      "##an": 124,
      "on": 125,
      "th": 126,
      "##or": 127,
      "##im": 128,
      "##on": 129,
      "##ut": 130,
      "her": 131,
      "##ll": 132,
      "##le": 133,
      "##et": 134,
      "##ot": 135,
      "##ir": 136,
      "##es": 137,
      "in": 138,
      "##ow": 139,
      "you": 140,
      "##ck": 141,
      "##ld": 142,
      "##oo": 143,
      "said": 144,
      "be": 145,
      "##ily": 146,
      "tim": 147,
      "st": 148,
      "##ig": 149,
      "so": 150,
      "##ce": 151,
      "##pp": 152,
      "his": 153,
      "wit": 154,
      "with": 155,
      "mom": 156,
      "##ve": 157,
      "lily": 158,
      "of": 159,
      "fr": 160,
      "that": 161,
      "##ked": 162,
      "##am": 163,
      "pl": 164,
      "##ery": 165,
      "##ad": 166,
      "##nt": 167,
      "##ke": 168,
      "but": 169,
      "day": 170,
      "up": 171,
      "##ie": 172,
      "play": 173,
      "had": 174,
      "##el": 175,
      "wh": 176,
      "for": 177,
      "##my": 178,
      "##st": 179,
      "##un": 180,
      "##ould": 181,
      "##ent": 182,
      "an": 183,
      "li": 184,
      "##ra": 185,
      "##ch": 186,
      "happ": 187,
      "one": 188,
      "##itt": 189,
      "do": 190,
      "sh": 191,
      "want": 192,
      "##her": 193,
      "there": 194,
      "##ly": 195,
      "very": 196,
      "##ome": 197,
      "##se": 198,
      "not": 199,
      "##ound": 200,
      "litt": 201,
      "little": 202,
      "as": 203,
      "ba": 204,
      "time": 205,
      "ne": 206,
      "##ht": 207,
      "##al": 208,
      "ma": 209,
      "happy": 210,
      "big": 211,
      "sm": 212,
      "is": 213,
      "saw": 214,
      "##iend": 215,
      "friend": 216,
      "loo": 217,
      "##ry": 218,
      "re": 219,
      "bo": 220,
      "##ur": 221,
      "##ter": 222,
      "##ved": 223,
      "##ug": 224,
      "once": 225,
      "lo": 226,
      "##ere": 227,
      "were": 228,
      "##ore": 229,
      "se": 230,
      "ev": 231,
      "go": 232,
      "sp": 233,
      "him": 234,
      "too": 235,
      "##ide": 236,
      "ca": 237,
      "we": 238,
      "at": 239,
      "##irl": 240,
      "tom": 241,
      "are": 242,
      "upon": 243,
      "can": 244,
      "whe": 245,
      "girl": 246,
      "wanted": 247,
      "##ard": 248,
      "##ec": 249,
      "##ill": 250,
      "out": 251,
      "ben": 252,
      "their": 253,
      "them": 254,
      "##fu": 255,
      "##way": 256,
      "##ys": 257,
      "did": 258,
      "##ind": 259,
      "could": 260,
      "smil": 261,
      "##ri": 262,
      "no": 263,
      "have": 264,
      "##ted": 265,
      "##ver": 266,
      "##ain": 267,
      "ex": 268,
      "all": 269,
      "##hed": 270,
      "went": 271,
      "hel": 272,
      "ar": 273,
      "su": 274,
      "when": 275,
      "nam": 276,
      "##ic": 277,
      "help": 278,
      "ta": 279,
      "friends": 280,
      "##ful": 281,
      "##ood": 282,
      "##hing": 283,
      "##ight": 284,
      "kn": 285,
      "what": 286,
      "le": 287,
      "##um": 288,
      "##ark": 289,
      "back": 290,
      "##one": 291,
      "cl": 292,
      "from": 293,
      "timmy": 294,
      "fun": 295,
      "al": 296,
      "then": 297,
      "named": 298,
      "##all": 299,
      "ro": 300,
      "every": 301,
      "star": 302,
      "sc": 303,
      "loved": 304,
      "smiled": 305,
      "##oug": 306,
      "##side": 307,
      "asked": 308,
      "##elt": 309,
      "man": 310,
      "some": 311,
      "##ick": 312,
      "see": 313,
      "me": 314,
      "like": 315,
      "fe": 316,
      "felt": 317,
      "##op": 318,
      "br": 319,
      "looked": 320,
      "around": 321,
      "##ame": 322,
      "##ep": 323,
      "bir": 324,
      "look": 325,
      "##omet": 326,
      "would": 327,
      "##get": 328,
      "somet": 329,
      "boy": 330,
      "fa": 331,
      "bird": 332,
      "##ong": 333,
      "##ss": 334,
      "pr": 335,
      "mommy": 336,
      "##dd": 337,
      "##est": 338,
      "##ings": 339,
      "ag": 340,
      "jo": 341,
      "wor": 342,
      "##ade": 343,
      "car": 344,
      "than": 345,
      "make": 346,
      "##gether": 347,
      "together": 348,
      "tre": 349,
      "##own": 350,
      "ran": 351,
      "away": 352,
      "la": 353,
      "dad": 354,
      "started": 355,
      "##ice": 356,
      "##oud": 357,
      "##ared": 358,
      "made": 359,
      "says": 360,
      "something": 361,
      "co": 362,
      "fl": 363,
      "##ited": 364,
      "park": 365,
      "sad": 366,
      "##ther": 367,
      "good": 368,
      "##ack": 369,
      "exc": 370,
      "new": 371,
      "ch": 372,
      "other": 373,
      "put": 374,
      "who": 375,
      "##out": 376,
      "let": 377,
      "mu": 378,
      "##ble": 379,
      "again": 380,
      "home": 381,
      "hug": 382,
      "found": 383,
      "sam": 384,
      "dec": 385,
      "##ried": 386,
      "wal": 387,
      "##pped": 388,
      "##ure": 389,
      "get": 390,
      "playing": 391,
      "##ought": 392,
      "##ach": 393,
      "##pl": 394,
      "gra": 395,
      "sw": 396,
      "things": 397,
      "##ous": 398,
      "excited": 399,
      "##na": 400,
      "got": 401,
      "bl": 402,
      "##ny": 403,
      "##king": 404,
      "##uck": 405,
      "liked": 406,
      "your": 407,
      "##ge": 408,
      "##ided": 409,
      "decided": 410,
      "came": 411,
      "my": 412,
      "bec": 413,
      "dog": 414,
      "scared": 415,
      "##ust": 416,
      "down": 417,
      "this": 418,
      "##ouse": 419,
      "ab": 420,
      "find": 421,
      "care": 422,
      "pa": 423,
      "gr": 424,
      "feel": 425,
      "po": 426,
      "will": 427,
      "max": 428,
      "sara": 429,
      "##ell": 430,
      "bu": 431,
      "##ist": 432,
      "##arn": 433,
      "##ways": 434,
      "##as": 435,
      "##ave": 436,
      "always": 437,
      "anna": 438,
      "##nder": 439,
      "didn": 440,
      "##ess": 441,
      "mo": 442,
      "about": 443,
      "took": 444,
      "kne": 445,
      "lot": 446,
      "toys": 447,
      "outside": 448,
      "##ers": 449,
      "##ook": 450,
      "tree": 451,
      "##ally": 452,
      "af": 453,
      "##ant": 454,
      "##ise": 455,
      "##bb": 456,
      "##ged": 457,
      "how": 458,
      "old": 459,
      "##ite": 460,
      "thought": 461,
      "ball": 462,
      "ho": 463,
      "more": 464,
      "##ma": 465,
      "##eci": 466,
      "##ened": 467,
      "##ched": 468,
      "sor": 469,
      "learn": 470,
      "##ret": 471,
      "tw": 472,
      "pu": 473,
      "cat": 474,
      "know": 475,
      "##to": 476,
      "take": 477,
      "pe": 478,
      "don": 479,
      "laug": 480,
      "knew": 481,
      "speci": 482,
      "sudd": 483,
      "special": 484,
      "sudden": 485,
      "##ty": 486,
      "mi": 487,
      "inside": 488,
      "##ive": 489,
      "any": 490,
      "toy": 491,
      "jack": 492,
      "suddenly": 493,
      "##ro": 494,
      "sorry": 495,
      "after": 496,
      "##ff": 497,
      "just": 498,
      "##ue": 499,
      "if": 500,
      "tr": 501,
      "show": 502,
      "##lly": 503,
      "##ink": 504,
      "much": 505,
      "ra": 506,
      "or": 507,
      "run": 508,
      "sl": 509,
      "##ish": 510,
      "hand": 511,
      "house": 512,
      "sun": 513,
      "yes": 514,
      "op": 515,
      "sk": 516,
      "clo": 517,
      "tried": 518,
      "fin": 519,
      "told": 520,
      "into": 521,
      "en": 522,
      "##ate": 523,
      "water": 524,
      "over": 525,
      "##ea": 526,
      "proud": 527,
      "##ump": 528,
      "##dy": 529,
      "##use": 530,
      "gave": 531,
      "never": 532,
      "each": 533,
      "heard": 534,
      "eat": 535,
      "##by": 536,
      "ok": 537,
      "expl": 538,
      "played": 539,
      "couldn": 540,
      "room": 541,
      "thank": 542,
      "##ause": 543,
      "pick": 544,
      "pret": 545,
      "because": 546,
      "##other": 547,
      "qu": 548,
      "gre": 549,
      "##lled": 550,
      "##ion": 551,
      "come": 552,
      "sha": 553,
      "wat": 554,
      "bear": 555,
      "mia": 556,
      "##ious": 557,
      "off": 558,
      "hugged": 559,
      "now": 560,
      "com": 561,
      "##oth": 562,
      "fo": 563,
      "bet": 564,
      "need": 565,
      "nice": 566,
      "##our": 567,
      "box": 568,
      "str": 569,
      "##ile": 570,
      "##fe": 571,
      "many": 572,
      "##ft": 573,
      "small": 574,
      "long": 575,
      "##eep": 576,
      "##ving": 577,
      "##sed": 578,
      "end": 579,
      "anim": 580,
      "animal": 581,
      "##ough": 582,
      "try": 583,
      "unt": 584,
      "##gry": 585,
      "##cy": 586,
      "##kes": 587,
      "even": 588,
      "##ort": 589,
      "until": 590,
      "##ild": 591,
      "##urt": 592,
      "##iz": 593,
      "##elf": 594,
      "learned": 595,
      "soon": 596,
      "kind": 597,
      "bea": 598,
      "everyone": 599,
      "by": 600,
      "better": 601,
      "ad": 602,
      "flow": 603,
      "love": 604,
      "spot": 605,
      "##mp": 606,
      "best": 607,
      "##ine": 608,
      "cle": 609,
      "##ady": 610,
      "##urp": 611,
      "##ream": 612,
      "##urn": 613,
      "##ace": 614,
      "fi": 615,
      "say": 616,
      "##ber": 617,
      "gard": 618,
      "garden": 619,
      "##ves": 620,
      "fast": 621,
      "its": 622,
      "careful": 623,
      "beaut": 624,
      "che": 625,
      "##ies": 626,
      "bra": 627,
      "sky": 628,
      "thanked": 629,
      "laughed": 630,
      "jump": 631,
      "gl": 632,
      "loud": 633,
      "ow": 634,
      "sn": 635,
      "list": 636,
      "##ct": 637,
      "##iny": 638,
      "##ear": 639,
      "lots": 640,
      "##lew": 641,
      "beauti": 642,
      "wo": 643,
      "beautiful": 644,
      "##sh": 645,
      "hard": 646,
      "fam": 647,
      "still": 648,
      "animals": 649,
      "lu": 650,
      "joh": 651,
      "under": 652,
      "john": 653,
      "stay": 654,
      "hurt": 655,
      "##ning": 656,
      "mum": 657,
      "both": 658,
      "dan": 659,
      "##self": 660,
      "rem": 661,
      "way": 662,
      "##ree": 663,
      "safe": 664,
      "two": 665,
      "##ool": 666,
      "bad": 667,
      "col": 668,
      "##hes": 669,
      "imp": 670,
      "di": 671,
      "lived": 672,
      "red": 673,
      "tow": 674,
      "##ople": 675,
      "##be": 676,
      "book": 677,
      "##em": 678,
      "people": 679,
      "##ane": 680,
      "walked": 681,
      "okay": 682,
      "lucy": 683,
      "surp": 684,
      "surpr": 685,
      "brave": 686,
      "family": 687,
      "should": 688,
      "##ase": 689,
      "adv": 690,
      "flew": 691,
      "##ished": 692,
      "##igh": 693,
      "##ress": 694,
      "##ock": 695,
      "stor": 696,
      "##ept": 697,
      "called": 698,
      "##eet": 699,
      "##ip": 700,
      "fore": 701,
      "angry": 702,
      "sure": 703,
      "fly": 704,
      "while": 705,
      "kept": 706,
      "##fore": 707,
      "##led": 708,
      "before": 709,
      "##ect": 710,
      "##xt": 711,
      "##ger": 712,
      "share": 713,
      "##ised": 714,
      "##art": 715,
      "pic": 716,
      "pretty": 717,
      "keep": 718,
      "going": 719,
      "rock": 720,
      "door": 721,
      "##dded": 722,
      "clean": 723,
      "##ied": 724,
      "next": 725,
      "dra": 726,
      "advent": 727,
      "con": 728,
      "why": 729,
      "##ary": 730,
      "un": 731,
      "##illy": 732,
      "far": 733,
      "real": 734,
      "id": 735,
      "shiny": 736,
      "give": 737,
      "noise": 738,
      "wind": 739,
      "opened": 740,
      "cry": 741,
      "may": 742,
      "grand": 743,
      "##end": 744,
      "sto": 745,
      "doll": 746,
      "ground": 747,
      "##ner": 748,
      "explore": 749,
      "turn": 750,
      "##so": 751,
      "##les": 752,
      "also": 753,
      "ey": 754,
      "idea": 755,
      "color": 756,
      "war": 757,
      "feeling": 758,
      "where": 759,
      "##ap": 760,
      "bob": 761,
      "picked": 762,
      "blue": 763,
      "##imb": 764,
      "nodded": 765,
      "walking": 766,
      "climb": 767,
      "##thing": 768,
      "clos": 769,
      "##ting": 770,
      "thr": 771,
      "bed": 772,
      "ple": 773,
      "wait": 774,
      "adventure": 775,
      "being": 776,
      "smile": 777,
      "##oy": 778,
      "finally": 779,
      "##th": 780,
      "##iced": 781,
      "has": 782,
      "looking": 783,
      "da": 784,
      "food": 785,
      "##ture": 786,
      "diff": 787,
      "wr": 788,
      "remem": 789,
      "##and": 790,
      "repl": 791,
      "maybe": 792,
      "picture": 793,
      "##joy": 794,
      "listen": 795,
      "del": 796,
      "tra": 797,
      "bro": 798,
      "great": 799,
      "##ught": 800,
      "truck": 801,
      "think": 802,
      "stopped": 803,
      "eyes": 804,
      "walk": 805,
      "##qu": 806,
      "gi": 807,
      "remember": 808,
      "ru": 809,
      "bre": 810,
      "enjoy": 811,
      "sue": 812,
      "##able": 813,
      "here": 814,
      "import": 815,
      "vo": 816,
      "year": 817,
      "forest": 818,
      "ever": 819,
      "quick": 820,
      "wonder": 821,
      "ac": 822,
      "##ized": 823,
      "flowers": 824,
      "##og": 825,
      "hands": 826,
      "##bbit": 827,
      "##per": 828,
      "app": 829,
      "noticed": 830,
      "near": 831,
      "cur": 832,
      "head": 833,
      "important": 834,
      "rabbit": 835,
      "dis": 836,
      "watch": 837,
      "fish": 838,
      "replied": 839,
      "bun": 840,
      "##irst": 841,
      "##age": 842,
      "rain": 843,
      "ama": 844,
      "##llow": 845,
      "sound": 846,
      "showed": 847,
      "amaz": 848,
      "mor": 849,
      "us": 850,
      "work": 851,
      "slide": 852,
      "tal": 853,
      "follow": 854,
      "##gan": 855,
      "sarah": 856,
      "stop": 857,
      "right": 858,
      "##ces": 859,
      "mag": 860,
      "tou": 861,
      "mean": 862,
      "differ": 863,
      "goodby": 864,
      "##bbed": 865,
      "watched": 866,
      "bright": 867,
      "daddy": 868,
      "##day": 869,
      "ask": 870,
      "goodbye": 871,
      "strong": 872,
      "our": 873,
      "use": 874,
      "please": 875,
      "quickly": 876,
      "hop": 877,
      "am": 878,
      "been": 879,
      "stick": 880,
      "voice": 881,
      "became": 882,
      "##ath": 883,
      "yell": 884,
      "different": 885,
      "boat": 886,
      "jane": 887,
      "##co": 888,
      "child": 889,
      "store": 890,
      "##che": 891,
      "##llo": 892,
      "high": 893,
      "place": 894,
      "hello": 895,
      "first": 896,
      "face": 897,
      "##ange": 898,
      "##ng": 899,
      "##ummy": 900,
      "warm": 901,
      "##ak": 902,
      "closer": 903,
      "dress": 904,
      "curious": 905,
      "sand": 906,
      "cook": 907,
      "fav": 908,
      "bel": 909,
      "does": 910,
      "forg": 911,
      "em": 912,
      "joe": 913,
      "tell": 914,
      "##ount": 915,
      "three": 916,
      "grandma": 917,
      "##oon": 918,
      "##leep": 919,
      "bunny": 920,
      "night": 921,
      "butter": 922,
      "open": 923,
      "##more": 924,
      "anymore": 925,
      "pie": 926,
      "mon": 927,
      "cake": 928,
      "##ila": 929,
      "##ired": 930,
      "lea": 931,
      "##ull": 932,
      "##iss": 933,
      "sweet": 934,
      "##ached": 935,
      "block": 936,
      "pain": 937,
      "lila": 938,
      "kid": 939,
      "kit": 940,
      "duck": 941,
      "flo": 942,
      "only": 943,
      "fell": 944,
      "cont": 945,
      "grabbed": 946,
      "##isy": 947,
      "birds": 948,
      "##ered": 949,
      "helped": 950,
      "##here": 951,
      "jumped": 952,
      "cra": 953,
      "per": 954,
      "fire": 955,
      "pet": 956,
      "bit": 957,
      "glad": 958,
      "##chen": 959,
      "kitchen": 960,
      "dr": 961,
      "sing": 962,
      "yummy": 963,
      "squ": 964,
      "prin": 965,
      "##ul": 966,
      "##outed": 967,
      "happened": 968,
      "hear": 969,
      "grass": 970,
      "story": 971,
      "realized": 972,
      "ready": 973,
      "tommy": 974,
      "tri": 975,
      "##nts": 976,
      "sees": 977,
      "really": 978,
      "beh": 979,
      "brother": 980,
      "favor": 981,
      "shouted": 982,
      "##ey": 983,
      "draw": 984,
      "cr": 985,
      "favorite": 986,
      "lady": 987,
      "having": 988,
      "reached": 989,
      "through": 990,
      "ate": 991,
      "game": 992,
      "cre": 993,
      "##zy": 994,
      "mess": 995,
      "soft": 996,
      "pare": 997,
      "underst": 998,
      "##ins": 999,
      "hat": 1000,
      "##imes": 1001,
      "less": 1002,
      "##ather": 1003,
      "butterf": 1004,
      "thing": 1005,
      "##ket": 1006,
      "magic": 1007,
      "began": 1008,
      "##where": 1009,
      "world": 1010,
      "cu": 1011,
      "##ken": 1012,
      "himself": 1013,
      "rest": 1014,
      "##fully": 1015,
      "##ppy": 1016,
      "sometimes": 1017,
      "pretend": 1018,
      "mouse": 1019,
      "making": 1020,
      "cut": 1021,
      "ted": 1022,
      "done": 1023,
      "kids": 1024,
      "prom": 1025,
      "fix": 1026,
      "coming": 1027,
      "looks": 1028,
      "wow": 1029,
      "worry": 1030,
      "##bo": 1031,
      "tired": 1032,
      "pond": 1033,
      "waved": 1034,
      "##ater": 1035,
      "##ely": 1036,
      "delic": 1037,
      "flower": 1038,
      "catch": 1039,
      "sally": 1040,
      "fill": 1041,
      "cars": 1042,
      "name": 1043,
      "tast": 1044,
      "##air": 1045,
      "##ster": 1046,
      "used": 1047,
      "farm": 1048,
      "funny": 1049,
      "##rel": 1050,
      "top": 1051,
      "##ient": 1052,
      "seen": 1053,
      "touch": 1054,
      "another": 1055,
      "hair": 1056,
      "hold": 1057,
      "parents": 1058,
      "cool": 1059,
      "surprise": 1060,
      "din": 1061,
      "te": 1062,
      "hopped": 1063,
      "##iver": 1064,
      "daisy": 1065,
      "cla": 1066,
      "green": 1067,
      "##oney": 1068,
      "doing": 1069,
      "cried": 1070,
      "light": 1071,
      "blocks": 1072,
      "read": 1073,
      "ste": 1074,
      "years": 1075,
      "##ation": 1076,
      "frog": 1077,
      "benny": 1078,
      "wood": 1079,
      "##ons": 1080,
      "dri": 1081,
      "sat": 1082,
      "trees": 1083,
      "worked": 1084,
      "par": 1085,
      "snow": 1086,
      "##ued": 1087,
      "##ards": 1088,
      "running": 1089,
      "full": 1090,
      "behind": 1091,
      "wear": 1092,
      "floor": 1093,
      "##pe": 1094,
      "bow": 1095,
      "dark": 1096,
      "##ren": 1097,
      "happily": 1098,
      "##ph": 1099,
      "window": 1100,
      "smell": 1101,
      "slow": 1102,
      "dro": 1103,
      "sleep": 1104,
      "swim": 1105,
      "teddy": 1106,
      "##ced": 1107,
      "lesson": 1108,
      "##ag": 1109,
      "##us": 1110,
      "butterfly": 1111,
      "yellow": 1112,
      "paper": 1113,
      "sho": 1114,
      "wished": 1115,
      "pat": 1116,
      "bag": 1117,
      "remembered": 1118,
      "baby": 1119,
      "set": 1120,
      "lost": 1121,
      "surprised": 1122,
      "carefully": 1123,
      "ice": 1124,
      "jim": 1125,
      "el": 1126,
      "mar": 1127,
      "needed": 1128,
      "likes": 1129,
      "cold": 1130,
      "swing": 1131,
      "billy": 1132,
      "##orn": 1133,
      "held": 1134,
      "hole": 1135,
      "buy": 1136,
      "own": 1137,
      "perf": 1138,
      "##rew": 1139,
      "##uff": 1140,
      "laugh": 1141,
      "move": 1142,
      "left": 1143,
      "anything": 1144,
      "dream": 1145,
      "tall": 1146,
      "enjoyed": 1147,
      "##cess": 1148,
      "##reed": 1149,
      "wrong": 1150,
      "fair": 1151,
      "arri": 1152,
      "contin": 1153,
      "air": 1154,
      "delicious": 1155,
      "finished": 1156,
      "books": 1157,
      "hun": 1158,
      "##ens": 1159,
      "followed": 1160,
      "hot": 1161,
      "children": 1162,
      "mat": 1163,
      "someone": 1164,
      "herself": 1165,
      "bus": 1166,
      "friendly": 1167,
      "##ndy": 1168,
      "dir": 1169,
      "table": 1170,
      "amy": 1171,
      "cream": 1172,
      "tea": 1173,
      "molly": 1174,
      "close": 1175,
      "hill": 1176,
      "bug": 1177,
      "##ross": 1178,
      "understand": 1179,
      "arrived": 1180,
      "everywhere": 1181,
      "hid": 1182,
      "might": 1183,
      "##lf": 1184,
      "##ined": 1185,
      "cast": 1186,
      "tight": 1187,
      "forgot": 1188,
      "gent": 1189,
      "res": 1190,
      "##ds": 1191,
      "squir": 1192,
      "arm": 1193,
      "rel": 1194,
      "##ield": 1195,
      "wonderful": 1196,
      "else": 1197,
      "build": 1198,
      "pink": 1199,
      "broken": 1200,
      "colors": 1201,
      "able": 1202,
      "gone": 1203,
      "squirrel": 1204,
      "continued": 1205,
      "sig": 1206,
      "jen": 1207,
      "song": 1208,
      "filled": 1209,
      "everything": 1210,
      "wall": 1211,
      "agreed": 1212,
      "gu": 1213,
      "later": 1214,
      "creat": 1215,
      "ll": 1216,
      "##asure": 1217,
      "count": 1218,
      "lion": 1219,
      "##ich": 1220,
      "##room": 1221,
      "##ama": 1222,
      "leaves": 1223,
      "enough": 1224,
      "vis": 1225,
      "ju": 1226,
      "moment": 1227,
      "morning": 1228,
      "mama": 1229,
      "##ast": 1230,
      "wants": 1231,
      "getting": 1232,
      "cookies": 1233,
      "joy": 1234,
      "stayed": 1235,
      "break": 1236,
      "dinner": 1237,
      "##shed": 1238,
      "fight": 1239,
      "beach": 1240,
      "##av": 1241,
      "scary": 1242,
      "mother": 1243,
      "##ance": 1244,
      "few": 1245,
      "oh": 1246,
      "##ence": 1247,
      "poin": 1248,
      "others": 1249,
      "hungry": 1250,
      "turned": 1251,
      "spark": 1252,
      "today": 1253,
      "##row": 1254,
      "wet": 1255,
      "trying": 1256,
      "fall": 1257,
      "perfect": 1258,
      "plan": 1259,
      "##pa": 1260,
      "amazing": 1261,
      "##gon": 1262,
      "met": 1263,
      "hi": 1264,
      "climbed": 1265,
      "castle": 1266,
      "##oup": 1267,
      "mus": 1268,
      "##ries": 1269,
      "pen": 1270,
      "fur": 1271,
      "pictures": 1272,
      "talk": 1273,
      "listened": 1274,
      "fox": 1275,
      "##oom": 1276,
      "spl": 1277,
      "makes": 1278,
      "brown": 1279,
      "white": 1280,
      "puppy": 1281,
      "balloon": 1282,
      "##oring": 1283,
      "shar": 1284,
      "leave": 1285,
      "pol": 1286,
      "clot": 1287,
      "jill": 1288,
      "alone": 1289,
      "brought": 1290,
      "##man": 1291,
      "##ctor": 1292,
      "##rot": 1293,
      "##ated": 1294,
      "clothes": 1295,
      "##amp": 1296,
      "tail": 1297,
      "sear": 1298,
      "deep": 1299,
      "smiles": 1300,
      "##ash": 1301,
      "grow": 1302,
      "##ister": 1303,
      "woods": 1304,
      "bi": 1305,
      "moral": 1306,
      "start": 1307,
      "sit": 1308,
      "##der": 1309,
      "strange": 1310,
      "sail": 1311,
      "##ling": 1312,
      "##elc": 1313,
      "well": 1314,
      "welc": 1315,
      "ride": 1316,
      "##pping": 1317,
      "danger": 1318,
      "won": 1319,
      "##zz": 1320,
      "visit": 1321,
      "treat": 1322,
      "##ott": 1323,
      "pulled": 1324,
      "wasn": 1325,
      "fluff": 1326,
      "##ake": 1327,
      "mark": 1328,
      "music": 1329,
      "fluffy": 1330,
      "hide": 1331,
      "amazed": 1332,
      "##ches": 1333,
      "##med": 1334,
      "waited": 1335,
      "asks": 1336,
      "towards": 1337,
      "##ang": 1338,
      "flying": 1339,
      "owner": 1340,
      "land": 1341,
      "pre": 1342,
      "##ven": 1343,
      "field": 1344,
      "##key": 1345,
      "##ower": 1346,
      "##ained": 1347,
      "shared": 1348,
      "##ead": 1349,
      "promised": 1350,
      "silly": 1351,
      "cloud": 1352,
      "##iet": 1353,
      "belie": 1354,
      "slowly": 1355,
      "##ames": 1356,
      "##ever": 1357,
      "job": 1358,
      "quiet": 1359,
      "side": 1360,
      "paint": 1361,
      "##cle": 1362,
      "##ugg": 1363,
      "##orm": 1364,
      "##la": 1365,
      "party": 1366,
      "sister": 1367,
      "##cket": 1368,
      "##thy": 1369,
      "lake": 1370,
      "race": 1371,
      "##gs": 1372,
      "living": 1373,
      "##igg": 1374,
      "bar": 1375,
      "cho": 1376,
      "must": 1377,
      "runs": 1378,
      "##pes": 1379,
      "money": 1380,
      "##ually": 1381,
      "##sp": 1382,
      "na": 1383,
      "grate": 1384,
      "mary": 1385,
      "##avy": 1386,
      "pot": 1387,
      "worried": 1388,
      "mr": 1389,
      "dance": 1390,
      "##sw": 1391,
      "colorful": 1392,
      "answ": 1393,
      "##ises": 1394,
      "thinks": 1395,
      "princess": 1396,
      "grateful": 1397,
      "bran": 1398,
      "faster": 1399,
      "##ased": 1400,
      "pieces": 1401,
      "luck": 1402,
      "broke": 1403,
      "bott": 1404,
      "such": 1405,
      "candy": 1406,
      "pro": 1407,
      "win": 1408,
      "train": 1409,
      "cup": 1410,
      "ele": 1411,
      "bigger": 1412,
      "##ze": 1413,
      "snack": 1414,
      "reach": 1415,
      "stu": 1416,
      "welcome": 1417,
      "river": 1418,
      "monster": 1419,
      "blan": 1420,
      "farmer": 1421,
      "kitt": 1422,
      "join": 1423,
      "helping": 1424,
      "inst": 1425,
      "##less": 1426,
      "black": 1427,
      "pull": 1428,
      "treasure": 1429,
      "comp": 1430,
      "lun": 1431,
      "##app": 1432,
      "magical": 1433,
      "blanket": 1434,
      "event": 1435,
      "bee": 1436,
      "acc": 1437,
      "dangerous": 1438,
      "most": 1439,
      "##uit": 1440,
      "bike": 1441,
      "sna": 1442,
      "##set": 1443,
      "nap": 1444,
      "call": 1445,
      "smart": 1446,
      "min": 1447,
      "dragon": 1448,
      "across": 1449,
      "scream": 1450,
      "miss": 1451,
      "jimmy": 1452,
      "sign": 1453,
      "spr": 1454,
      "##cked": 1455,
      "##icy": 1456,
      "##ident": 1457,
      "disapp": 1458,
      "##outh": 1459,
      "pass": 1460,
      "mouth": 1461,
      "stre": 1462,
      "ear": 1463,
      "heavy": 1464,
      "doctor": 1465,
      "##ming": 1466,
      "##eared": 1467,
      "words": 1468,
      "tower": 1469,
      "bite": 1470,
      "stepped": 1471,
      "crying": 1472,
      "dirty": 1473,
      "believe": 1474,
      "threw": 1475,
      "dolls": 1476,
      "bowl": 1477,
      "carrot": 1478,
      "same": 1479,
      "##de": 1480,
      "heal": 1481,
      "bath": 1482,
      "##ored": 1483,
      "##fort": 1484,
      "##red": 1485,
      "##lla": 1486,
      "hig": 1487,
      "##bble": 1488,
      "mummy": 1489,
      "##chool": 1490,
      "stuck": 1491,
      "closed": 1492,
      "##ment": 1493,
      "plant": 1494,
      "without": 1495,
      "twins": 1496,
      "eating": 1497,
      "cour": 1498,
      "bas": 1499,
      "school": 1500,
      "fruit": 1501,
      "att": 1502,
      "heart": 1503,
      "emma": 1504,
      "##os": 1505,
      "buck": 1506,
      "mix": 1507,
      "town": 1508,
      "wouldn": 1509,
      "##ipped": 1510,
      "fairy": 1511,
      "basket": 1512,
      "coll": 1513,
      "##iting": 1514,
      "course": 1515,
      "chair": 1516,
      "##cher": 1517,
      "clapped": 1518,
      "pack": 1519,
      "hoped": 1520,
      "stand": 1521,
      "accident": 1522,
      "cray": 1523,
      "gentle": 1524,
      "butt": 1525,
      "##ier": 1526,
      "eventually": 1527,
      "along": 1528,
      "feels": 1529,
      "drove": 1530,
      "free": 1531,
      "##ors": 1532,
      "swings": 1533,
      "ve": 1534,
      "##br": 1535,
      "neigh": 1536,
      "higher": 1537,
      "##orrow": 1538,
      "pushed": 1539,
      "##issed": 1540,
      "je": 1541,
      "sec": 1542,
      "pocket": 1543,
      "smo": 1544,
      "har": 1545,
      "explained": 1546,
      "neighb": 1547,
      "pers": 1548,
      "hit": 1549,
      "teacher": 1550,
      "games": 1551,
      "piece": 1552,
      "##ourn": 1553,
      "longer": 1554,
      "##ord": 1555,
      "yard": 1556,
      "wings": 1557,
      "journ": 1558,
      "cheered": 1559,
      "##que": 1560,
      "##ible": 1561,
      "forget": 1562,
      "dry": 1563,
      "##ank": 1564,
      "happen": 1565,
      "owl": 1566,
      "##ire": 1567,
      "sang": 1568,
      "##itting": 1569,
      "##umb": 1570,
      "late": 1571,
      "##ract": 1572,
      "young": 1573,
      "mine": 1574,
      "tiny": 1575,
      "instead": 1576,
      "monkey": 1577,
      "throw": 1578,
      "neck": 1579,
      "##phant": 1580,
      "elephant": 1581,
      "apple": 1582,
      "upset": 1583,
      "singing": 1584,
      "adventures": 1585,
      "##sc": 1586,
      "king": 1587,
      "##vel": 1588,
      "shoes": 1589,
      "noises": 1590,
      "lon": 1591,
      "turns": 1592,
      "sea": 1593,
      "trou": 1594,
      "lunch": 1595,
      "stories": 1596,
      "mad": 1597,
      "ph": 1598,
      "dist": 1599,
      "gift": 1600,
      "lonely": 1601,
      "sammy": 1602,
      "street": 1603,
      "jar": 1604,
      "##oun": 1605,
      "pla": 1606,
      "hugs": 1607,
      "##ountain": 1608,
      "secret": 1609,
      "inv": 1610,
      "belong": 1611,
      "soup": 1612,
      "wise": 1613,
      "des": 1614,
      "purp": 1615,
      "##ost": 1616,
      "nearby": 1617,
      "wish": 1618,
      "mitt": 1619,
      "exploring": 1620,
      "de": 1621,
      "bring": 1622,
      "fence": 1623,
      "nothing": 1624,
      "shop": 1625,
      "taking": 1626,
      "bat": 1627,
      "moved": 1628,
      "shook": 1629,
      "sunny": 1630,
      "caught": 1631,
      "##yard": 1632,
      "##fused": 1633,
      "stars": 1634,
      "naught": 1635,
      "naughty": 1636,
      "backyard": 1637,
      "##ol": 1638,
      "##bow": 1639,
      "##ts": 1640,
      "though": 1641,
      "##ocked": 1642,
      "drink": 1643,
      "whenever": 1644,
      "rocks": 1645,
      "mil": 1646,
      "##ward": 1647,
      "orange": 1648,
      "relie": 1649,
      "mail": 1650,
      "purple": 1651,
      "seemed": 1652,
      "##sy": 1653,
      "dropped": 1654,
      "swam": 1655,
      "cow": 1656,
      "##adow": 1657,
      "ima": 1658,
      "##cing": 1659,
      "tweet": 1660,
      "##ughter": 1661,
      "woke": 1662,
      "past": 1663,
      "resp": 1664,
      "bucket": 1665,
      "##ped": 1666,
      "rainbow": 1667,
      "sitting": 1668,
      "nest": 1669,
      "##ions": 1670,
      "fit": 1671,
      "bench": 1672,
      "boun": 1673,
      "ob": 1674,
      "shapes": 1675,
      "##ity": 1676,
      "sounds": 1677,
      "pig": 1678,
      "busy": 1679,
      "wondered": 1680,
      "days": 1681,
      "daughter": 1682,
      "##col": 1683,
      "nose": 1684,
      "juice": 1685,
      "lucky": 1686,
      "##bby": 1687,
      "##ese": 1688,
      "kite": 1689,
      "key": 1690,
      "cou": 1691,
      "##read": 1692,
      "part": 1693,
      "arms": 1694,
      "birth": 1695,
      "cir": 1696,
      "birthday": 1697,
      "holding": 1698,
      "##cks": 1699,
      "##ining": 1700,
      "rec": 1701,
      "round": 1702,
      "branch": 1703,
      "coat": 1704,
      "forever": 1705,
      "takes": 1706,
      "zoom": 1707,
      "relieved": 1708,
      "carry": 1709,
      "inter": 1710,
      "driver": 1711,
      "peace": 1712,
      "cute": 1713,
      "##raid": 1714,
      "##vered": 1715,
      "afraid": 1716,
      "comes": 1717,
      "sick": 1718,
      "spoon": 1719,
      "##idge": 1720,
      "##ek": 1721,
      "promise": 1722,
      "patient": 1723,
      "##unt": 1724,
      "##ung": 1725,
      "##ours": 1726,
      "cheese": 1727,
      "letter": 1728,
      "jenny": 1729,
      "huge": 1730,
      "##are": 1731,
      "honey": 1732,
      "touched": 1733,
      "fing": 1734,
      "onto": 1735,
      "hope": 1736,
      "accidentally": 1737,
      "life": 1738,
      "imag": 1739,
      "exciting": 1740,
      "grab": 1741,
      "laughing": 1742,
      "bush": 1743,
      "band": 1744,
      "gigg": 1745,
      "ret": 1746,
      "##gged": 1747,
      "##board": 1748,
      "ig": 1749,
      "creature": 1750,
      "disco": 1751,
      "power": 1752,
      "sunsh": 1753,
      "craw": 1754,
      "cozy": 1755,
      "sunshine": 1756,
      "mittens": 1757,
      "inc": 1758,
      "swimming": 1759,
      "kick": 1760,
      "shell": 1761,
      "mist": 1762,
      "hey": 1763,
      "whist": 1764,
      "suc": 1765,
      "emily": 1766,
      "journey": 1767,
      "##alm": 1768,
      "spin": 1769,
      "milk": 1770,
      "watching": 1771,
      "bread": 1772,
      "wra": 1773,
      "##ness": 1774,
      "##let": 1775,
      "return": 1776,
      "bottle": 1777,
      "##ten": 1778,
      "sharp": 1779,
      "eas": 1780,
      "##esting": 1781,
      "##ian": 1782,
      "pudd": 1783,
      "cave": 1784,
      "##mm": 1785,
      "##pt": 1786,
      "talked": 1787,
      "spo": 1788,
      "eg": 1789,
      "bought": 1790,
      "fan": 1791,
      "cor": 1792,
      "searched": 1793,
      "gather": 1794,
      "ent": 1795,
      "grandpa": 1796,
      "whis": 1797,
      "hor": 1798,
      "pointed": 1799,
      "ce": 1800,
      "ann": 1801,
      "road": 1802,
      "shout": 1803,
      "apples": 1804,
      "anyone": 1805,
      "smiling": 1806,
      "sandw": 1807,
      "##ball": 1808,
      "##blem": 1809,
      "problem": 1810,
      "act": 1811,
      "##els": 1812,
      "meet": 1813,
      "puts": 1814,
      "##irt": 1815,
      "gives": 1816,
      "spid": 1817,
      "##ize": 1818,
      "healthy": 1819,
      "roll": 1820,
      "interesting": 1821,
      "tasty": 1822,
      "mach": 1823,
      "pop": 1824,
      "storm": 1825,
      "pres": 1826,
      "wom": 1827,
      "these": 1828,
      "plane": 1829,
      "clever": 1830,
      "woman": 1831,
      "prot": 1832,
      "##ned": 1833,
      "##sie": 1834,
      "wide": 1835,
      "##eter": 1836,
      "vill": 1837,
      "ap": 1838,
      "adm": 1839,
      "pile": 1840,
      "feather": 1841,
      "hon": 1842,
      "kiss": 1843,
      "ducks": 1844,
      "trouble": 1845,
      "##aur": 1846,
      "which": 1847,
      "rose": 1848,
      "matter": 1849,
      "person": 1850,
      "##amed": 1851,
      "clouds": 1852,
      "##fortable": 1853,
      "crayons": 1854,
      "path": 1855,
      "##owed": 1856,
      "shining": 1857,
      "loves": 1858,
      "##round": 1859,
      "pract": 1860,
      "##cer": 1861,
      "##ont": 1862,
      "bubble": 1863,
      "##fted": 1864,
      "pill": 1865,
      "smelled": 1866,
      "##ub": 1867,
      "val": 1868,
      "mud": 1869,
      "zoo": 1870,
      "front": 1871,
      "saf": 1872,
      "rope": 1873,
      "jake": 1874,
      "danced": 1875,
      "snowman": 1876,
      "organ": 1877,
      "present": 1878,
      "minut": 1879,
      "button": 1880,
      "spotted": 1881,
      "##ching": 1882,
      "##eb": 1883,
      "sur": 1884,
      "puzz": 1885,
      "thin": 1886,
      "quest": 1887,
      "ash": 1888,
      "appeared": 1889,
      "seat": 1890,
      "cheer": 1891,
      "rob": 1892,
      "teach": 1893,
      "shr": 1894,
      "wild": 1895,
      "##dge": 1896,
      "screamed": 1897,
      "snake": 1898,
      "asleep": 1899,
      "##ular": 1900,
      "gently": 1901,
      "bark": 1902,
      "horse": 1903,
      "##epend": 1904,
      "lovely": 1905,
      "char": 1906,
      "giant": 1907,
      "neighbor": 1908,
      "mind": 1909,
      "answer": 1910,
      "whole": 1911,
      "wearing": 1912,
      "##isa": 1913,
      "##oose": 1914,
      "sharing": 1915,
      "places": 1916,
      "##ove": 1917,
      "##pper": 1918,
      "tear": 1919,
      "confused": 1920,
      "trip": 1921,
      "lar": 1922,
      "med": 1923,
      "impress": 1924,
      "exp": 1925,
      "chick": 1926,
      "corner": 1927,
      "dirt": 1928,
      "splas": 1929,
      "tasted": 1930,
      "oce": 1931,
      "ocean": 1932,
      "lisa": 1933,
      "live": 1934,
      "##ale": 1935,
      "##nic": 1936,
      "slid": 1937,
      "kitty": 1938,
      "calm": 1939,
      "##ert": 1940,
      "rolled": 1941,
      "picnic": 1942,
      "respect": 1943,
      "goes": 1944,
      "supp": 1945,
      "##ato": 1946,
      "ser": 1947,
      "last": 1948,
      "spider": 1949,
      "spent": 1950,
      "tun": 1951,
      "drive": 1952,
      "##ssed": 1953,
      "card": 1954,
      "true": 1955,
      "forgive": 1956,
      "phone": 1957,
      "lay": 1958,
      "cookie": 1959,
      "furry": 1960,
      "pan": 1961,
      "rude": 1962,
      "##ager": 1963,
      "##ser": 1964,
      "machine": 1965,
      "##fl": 1966,
      "tries": 1967,
      "##ee": 1968,
      "pour": 1969,
      "oven": 1970,
      "delight": 1971,
      "teet": 1972,
      "protect": 1973,
      "tomorrow": 1974,
      "teeth": 1975,
      "worm": 1976,
      "ring": 1977,
      "ban": 1978,
      "##eak": 1979,
      "helpful": 1980,
      "nut": 1981,
      "pretended": 1982,
      "feet": 1983,
      "##umber": 1984,
      "##bar": 1985,
      "sal": 1986,
      "lad": 1987,
      "scar": 1988,
      "##unk": 1989,
      "peter": 1990,
      "mountain": 1991,
      "##lder": 1992,
      "wave": 1993,
      "chocol": 1994,
      "fighting": 1995,
      "wip": 1996,
      "lets": 1997,
      "shy": 1998,
      "##ia": 1999,
      "faces": 2000,
      "talking": 2001,
      "ant": 2002,
      "step": 2003,
      "##ones": 2004,
      "bell": 2005,
      "grace": 2006,
      "tid": 2007,
      "ign": 2008,
      "sque": 2009,
      "foot": 2010,
      "spread": 2011,
      "seek": 2012,
      "building": 2013,
      "stret": 2014,
      "remind": 2015,
      "eager": 2016,
      "self": 2017,
      "village": 2018,
      "coo": 2019,
      "push": 2020,
      "wore": 2021,
      "collect": 2022,
      "coin": 2023,
      "write": 2024,
      "blew": 2025,
      "paw": 2026,
      "treats": 2027,
      "smooth": 2028,
      "couch": 2029,
      "ladder": 2030,
      "embar": 2031,
      "tool": 2032,
      "chased": 2033,
      "hiding": 2034,
      "embarra": 2035,
      "bugs": 2036,
      "##llie": 2037,
      "knee": 2038,
      "fred": 2039,
      "waiting": 2040,
      "robot": 2041,
      "##lex": 2042,
      "chocolate": 2043,
      "stir": 2044,
      "pool": 2045,
      "sol": 2046,
      "##ator": 2047,
      "cross": 2048,
      "banan": 2049,
      "finish": 2050,
      "stra": 2051,
      "songs": 2052,
      "puddle": 2053,
      "##scap": 2054,
      "crab": 2055,
      "taste": 2056,
      "fixed": 2057,
      "##ife": 2058,
      "##als": 2059,
      "shelf": 2060,
      "leaf": 2061,
      "selfish": 2062,
      "sack": 2063,
      "roar": 2064,
      "##ult": 2065,
      "hum": 2066,
      "gen": 2067,
      "trust": 2068,
      "string": 2069,
      "barked": 2070,
      "tidy": 2071,
      "cele": 2072,
      "large": 2073,
      "net": 2074,
      "wash": 2075,
      "cann": 2076,
      "spray": 2077,
      "celebr": 2078,
      "##box": 2079,
      "stone": 2080,
      "jung": 2081,
      "uni": 2082,
      "cannot": 2083,
      "colour": 2084,
      "peaceful": 2085,
      "##umpy": 2086,
      "jungle": 2087,
      "cloth": 2088,
      "splash": 2089,
      "missed": 2090,
      "shirt": 2091,
      "honest": 2092,
      "##iger": 2093,
      "moon": 2094,
      "##izz": 2095,
      "johnny": 2096,
      "embarrassed": 2097,
      "decor": 2098,
      "jumping": 2099,
      "deter": 2100,
      "gray": 2101,
      "int": 2102,
      "landed": 2103,
      "##mmer": 2104,
      "determ": 2105,
      "##ail": 2106,
      "alice": 2107,
      "carrots": 2108,
      "forward": 2109,
      "neckl": 2110,
      "necklace": 2111,
      "##oin": 2112,
      "bal": 2113,
      "##sk": 2114,
      "##ass": 2115,
      "tv": 2116,
      "knocked": 2117,
      "success": 2118,
      "tightly": 2119,
      "ber": 2120,
      "meant": 2121,
      "emp": 2122,
      "meadow": 2123,
      "disappoin": 2124,
      "veget": 2125,
      "creative": 2126,
      "vegetable": 2127,
      "sticks": 2128,
      "stood": 2129,
      "hur": 2130,
      "##ying": 2131,
      "sour": 2132,
      "gener": 2133,
      "alm": 2134,
      "breath": 2135,
      "almost": 2136,
      "av": 2137,
      "fear": 2138,
      "whistle": 2139,
      "##airs": 2140,
      "##elly": 2141,
      "gas": 2142,
      "grew": 2143,
      "plate": 2144,
      "empty": 2145,
      "legs": 2146,
      "##gy": 2147,
      "lem": 2148,
      "ashamed": 2149,
      "##ground": 2150,
      "hears": 2151,
      "carried": 2152,
      "mir": 2153,
      "##dle": 2154,
      "pillow": 2155,
      "rex": 2156,
      "gold": 2157,
      "##den": 2158,
      "understood": 2159,
      "clear": 2160,
      "hours": 2161,
      "##ope": 2162,
      "sheep": 2163,
      "##ital": 2164,
      "##ush": 2165,
      "save": 2166,
      "hosp": 2167,
      "jew": 2168,
      "myster": 2169,
      "hospital": 2170,
      "##ustr": 2171,
      "chew": 2172,
      "disappointed": 2173,
      "pay": 2174,
      "prince": 2175,
      "##vous": 2176,
      "##ime": 2177,
      "snacks": 2178,
      "frustr": 2179,
      "yelled": 2180,
      "knowing": 2181,
      "police": 2182,
      "kitten": 2183,
      "poor": 2184,
      "tells": 2185,
      "sparkly": 2186,
      "ship": 2187,
      "rad": 2188,
      "hidden": 2189,
      "pizz": 2190,
      "line": 2191,
      "wolf": 2192,
      "standing": 2193,
      "pin": 2194,
      "leo": 2195,
      "generous": 2196,
      "group": 2197,
      "taught": 2198,
      "##ets": 2199,
      "returned": 2200,
      "pri": 2201,
      "mysterious": 2202,
      "liz": 2203,
      "##urse": 2204,
      "##cles": 2205,
      "blow": 2206,
      "bored": 2207,
      "glass": 2208,
      "bedroom": 2209,
      "jelly": 2210,
      "plants": 2211,
      "seed": 2212,
      "nods": 2213,
      "easy": 2214,
      "minutes": 2215,
      "spicy": 2216,
      "##body": 2217,
      "polite": 2218,
      "waves": 2219,
      "##ork": 2220,
      "frustrated": 2221,
      "pizza": 2222,
      "##ected": 2223,
      "puzzle": 2224,
      "reg": 2225,
      "shore": 2226,
      "class": 2227,
      "sandwich": 2228,
      "powerful": 2229,
      "scarf": 2230,
      "ner": 2231,
      "drew": 2232,
      "##ested": 2233,
      "passed": 2234,
      "grumpy": 2235,
      "sleepy": 2236,
      "fancy": 2237,
      "thankful": 2238,
      "##iff": 2239,
      "determined": 2240,
      "sighed": 2241,
      "wis": 2242,
      "mid": 2243,
      "##erp": 2244,
      "susie": 2245,
      "messy": 2246,
      "##kin": 2247,
      "pir": 2248,
      "nervous": 2249,
      "##work": 2250,
      "fig": 2251,
      "##illar": 2252,
      "caterp": 2253,
      "caterpillar": 2254,
      "spoil": 2255,
      "sco": 2256,
      "gun": 2257,
      "mill": 2258,
      "##ird": 2259,
      "law": 2260,
      "tick": 2261,
      "finger": 2262,
      "van": 2263,
      "sold": 2264,
      "lock": 2265,
      "mot": 2266,
      "feed": 2267,
      "closet": 2268,
      "bubbles": 2269,
      "hang": 2270,
      "escap": 2271,
      "excite": 2272,
      "##osaur": 2273,
      "gate": 2274,
      "gathered": 2275,
      "##uce": 2276,
      "working": 2277,
      "que": 2278,
      "often": 2279,
      "dinosaur": 2280,
      "ug": 2281,
      "tears": 2282,
      "bridge": 2283,
      "##ote": 2284,
      "answered": 2285,
      "hopping": 2286,
      "sciss": 2287,
      "whisper": 2288,
      "bill": 2289,
      "kissed": 2290,
      "scissors": 2291,
      "twirl": 2292,
      "ugly": 2293,
      "yourself": 2294,
      "chest": 2295,
      "deer": 2296,
      "flag": 2297,
      "##sel": 2298,
      "fil": 2299,
      "scr": 2300,
      "##oop": 2301,
      "##flower": 2302,
      "##era": 2303,
      "##pack": 2304,
      "##ensive": 2305,
      "##selves": 2306,
      "##mb": 2307,
      "expensive": 2308,
      "cand": 2309,
      "burn": 2310,
      "drop": 2311,
      "excitement": 2312,
      "lit": 2313,
      "saved": 2314,
      "leg": 2315,
      "cries": 2316,
      "wagged": 2317,
      "middle": 2318,
      "##ecially": 2319,
      "esp": 2320,
      "especially": 2321,
      "taken": 2322,
      "spend": 2323,
      "mel": 2324,
      "jog": 2325,
      "boss": 2326,
      "ones": 2327,
      "sug": 2328,
      "pleased": 2329,
      "vase": 2330,
      "bobby": 2331,
      "##ina": 2332,
      "asking": 2333,
      "##illed": 2334,
      "crown": 2335,
      "##ax": 2336,
      "boring": 2337,
      "vegetables": 2338,
      "dancing": 2339,
      "##ual": 2340,
      "sugar": 2341,
      "queen": 2342,
      "tie": 2343,
      "number": 2344,
      "clown": 2345,
      "##astic": 2346,
      "giggled": 2347,
      "lift": 2348,
      "brush": 2349,
      "##oof": 2350,
      "stuff": 2351,
      "##itter": 2352,
      "##ates": 2353,
      "rocket": 2354,
      "fine": 2355,
      "packed": 2356,
      "comfortable": 2357,
      "flut": 2358,
      "##ud": 2359,
      "mistake": 2360,
      "tent": 2361,
      "cage": 2362,
      "##light": 2363,
      "medic": 2364,
      "sweetie": 2365,
      "jam": 2366,
      "test": 2367,
      "wander": 2368,
      "fake": 2369,
      "knight": 2370,
      "lying": 2371,
      "bye": 2372,
      "picks": 2373,
      "drum": 2374,
      "dest": 2375,
      "##iv": 2376,
      "drawing": 2377,
      "moms": 2378,
      "sight": 2379,
      "##ose": 2380,
      "bake": 2381,
      "elder": 2382,
      "##iness": 2383,
      "##oph": 2384,
      "press": 2385,
      "gets": 2386,
      "yog": 2387,
      "pray": 2388,
      "medicine": 2389,
      "glue": 2390,
      "distance": 2391,
      "fruits": 2392,
      "lemon": 2393,
      "##ror": 2394,
      "eggs": 2395,
      "##ond": 2396,
      "moving": 2397,
      "chir": 2398,
      "feathers": 2399,
      "lazy": 2400,
      "##yal": 2401,
      "##aff": 2402,
      "week": 2403,
      "bone": 2404,
      "aunt": 2405,
      "fold": 2406,
      "splashed": 2407,
      "lead": 2408,
      "dogs": 2409,
      "fis": 2410,
      "change": 2411,
      "rich": 2412,
      "mandy": 2413,
      "smelly": 2414,
      "elderly": 2415,
      "become": 2416,
      "disappeared": 2417,
      "pus": 2418,
      "gar": 2419,
      "cri": 2420,
      "father": 2421,
      "rid": 2422,
      "walks": 2423,
      "thanks": 2424,
      "match": 2425,
      "pete": 2426,
      "mov": 2427,
      "##itch": 2428,
      "penny": 2429,
      "add": 2430,
      "mic": 2431,
      "clap": 2432,
      "incred": 2433,
      "boys": 2434,
      "weak": 2435,
      "playground": 2436,
      "lose": 2437,
      "ellie": 2438,
      "shoot": 2439,
      "body": 2440,
      "calling": 2441,
      "exam": 2442,
      "bathroom": 2443,
      "licked": 2444,
      "loyal": 2445,
      "sugg": 2446,
      "mirror": 2447,
      "check": 2448,
      "horn": 2449,
      "tiger": 2450,
      "noisy": 2451,
      "questions": 2452,
      "adventur": 2453,
      "ter": 2454,
      "##ory": 2455,
      "wrote": 2456,
      "aw": 2457,
      "ind": 2458,
      "ord": 2459,
      "famous": 2460,
      "glow": 2461,
      "yours": 2462,
      "sell": 2463,
      "ext": 2464,
      "##land": 2465,
      "relax": 2466,
      "map": 2467,
      "ang": 2468,
      "skipped": 2469,
      "covered": 2470,
      "incredible": 2471,
      "rare": 2472,
      "##ging": 2473,
      "wheel": 2474,
      "##hip": 2475,
      "dish": 2476,
      "drank": 2477,
      "soap": 2478,
      "content": 2479,
      "lamp": 2480,
      "juicy": 2481,
      "##ination": 2482,
      "team": 2483,
      "stones": 2484,
      "tape": 2485,
      "measure": 2486,
      "sailed": 2487,
      "figure": 2488,
      "straw": 2489,
      "borrow": 2490,
      "bella": 2491,
      "dig": 2492,
      "##zed": 2493,
      "turt": 2494,
      "swan": 2495,
      "nod": 2496,
      "ella": 2497,
      "##ots": 2498,
      "ruined": 2499,
      "those": 2500,
      "##ti": 2501,
      "cleaned": 2502,
      "##ately": 2503,
      "balls": 2504,
      "barn": 2505,
      "chicken": 2506,
      "discovered": 2507,
      "im": 2508,
      "##umbled": 2509,
      "##aw": 2510,
      "mod": 2511,
      "realised": 2512,
      "##eed": 2513,
      "shows": 2514,
      "coins": 2515,
      "extra": 2516,
      "branches": 2517,
      "balance": 2518,
      "tweety": 2519,
      "needs": 2520,
      "bobo": 2521,
      "joke": 2522,
      "diffic": 2523,
      "sadly": 2524,
      "offered": 2525,
      "##ating": 2526,
      "dol": 2527,
      "##asing": 2528,
      "dolph": 2529,
      "mighty": 2530,
      "motor": 2531,
      "decide": 2532,
      "adventurous": 2533,
      "##port": 2534,
      "snugg": 2535,
      "towel": 2536,
      "ge": 2537,
      "board": 2538,
      "thick": 2539,
      "##aged": 2540,
      "##ron": 2541,
      "difficult": 2542,
      "tag": 2543,
      "organized": 2544,
      "birdie": 2545,
      "##ha": 2546,
      "jeal": 2547,
      "unique": 2548,
      "weird": 2549,
      "jealous": 2550,
      "toug": 2551,
      "eye": 2552,
      "cover": 2553,
      "happening": 2554,
      "guess": 2555,
      "##imed": 2556,
      "fright": 2557,
      "frown": 2558,
      "mrs": 2559,
      "lifted": 2560,
      "colourful": 2561,
      "##keep": 2562,
      "##izzy": 2563,
      "bottom": 2564,
      "##mo": 2565,
      "##lies": 2566,
      "knife": 2567,
      "island": 2568,
      "kindness": 2569,
      "learning": 2570,
      "bald": 2571,
      "coco": 2572,
      "hunt": 2573,
      "sil": 2574,
      "hose": 2575,
      "##cil": 2576,
      "wand": 2577,
      "circle": 2578,
      "managed": 2579,
      "##ges": 2580,
      "pencil": 2581,
      "crawled": 2582,
      "four": 2583,
      "garage": 2584,
      "dizzy": 2585,
      "jewel": 2586,
      "bur": 2587,
      "arg": 2588,
      "compet": 2589,
      "##ddy": 2590,
      "desig": 2591,
      "zip": 2592,
      "cost": 2593,
      "##olog": 2594,
      "tough": 2595,
      "balloons": 2596,
      "saying": 2597,
      "uncle": 2598,
      "squee": 2599,
      "chase": 2600,
      "search": 2601,
      "shake": 2602,
      "berries": 2603,
      "word": 2604,
      "##ject": 2605,
      "buzz": 2606,
      "turtle": 2607,
      "dave": 2608,
      "apolog": 2609,
      "smoke": 2610,
      "##imp": 2611,
      "##ob": 2612,
      "##itar": 2613,
      "guitar": 2614,
      "strawber": 2615,
      "unus": 2616,
      "##illi": 2617,
      "whale": 2618,
      "hurts": 2619,
      "norm": 2620,
      "##ured": 2621,
      "favour": 2622,
      "pump": 2623,
      "pear": 2624,
      "unusual": 2625,
      "##ready": 2626,
      "already": 2627,
      "pointing": 2628,
      "enjoying": 2629,
      "louder": 2630,
      "ref": 2631,
      "libr": 2632,
      "added": 2633,
      "##keeper": 2634,
      "belonged": 2635,
      "fool": 2636,
      "valu": 2637,
      "banana": 2638,
      "cheerful": 2639,
      "hero": 2640,
      "trunk": 2641,
      "excitedly": 2642,
      "##oc": 2643,
      "spun": 2644,
      "##head": 2645,
      "bossy": 2646,
      "favourite": 2647,
      "edge": 2648,
      "##rage": 2649,
      "record": 2650,
      "giving": 2651,
      "harder": 2652,
      "impressed": 2653,
      "normal": 2654,
      "market": 2655,
      "wake": 2656,
      "harm": 2657,
      "wrapped": 2658,
      "sword": 2659,
      "loudly": 2660,
      "pip": 2661,
      "flash": 2662,
      "nemo": 2663,
      "terri": 2664,
      "trucks": 2665,
      "pil": 2666,
      "choose": 2667,
      "grown": 2668,
      "brilli": 2669,
      "stri": 2670,
      "##nda": 2671,
      "##ym": 2672,
      "escape": 2673,
      "soph": 2674,
      "##ilt": 2675,
      "brilliant": 2676,
      "##anged": 2677,
      "boxes": 2678,
      "##alk": 2679,
      "anc": 2680,
      "##uct": 2681,
      "ears": 2682,
      "painting": 2683,
      "proudly": 2684,
      "scare": 2685,
      "goat": 2686,
      "frightened": 2687,
      "pee": 2688,
      "ancient": 2689,
      "study": 2690,
      "invited": 2691,
      "cab": 2692,
      "against": 2693,
      "##ps": 2694,
      "##fast": 2695,
      "circles": 2696,
      "dreamed": 2697,
      "##akes": 2698,
      "safely": 2699,
      "##ature": 2700,
      "skin": 2701,
      "acce": 2702,
      "breakfast": 2703,
      "hats": 2704,
      "depend": 2705,
      "stubb": 2706,
      "rh": 2707,
      "means": 2708,
      "stubborn": 2709,
      "bloom": 2710,
      "happiness": 2711,
      "buttons": 2712,
      "clay": 2713,
      "laughs": 2714,
      "slipped": 2715,
      "snee": 2716,
      "suit": 2717,
      "cabin": 2718,
      "brothers": 2719,
      "cudd": 2720,
      "##ara": 2721,
      "unl": 2722,
      "valuable": 2723,
      "log": 2724,
      "shark": 2725,
      "ducky": 2726,
      "stream": 2727,
      "helps": 2728,
      "fier": 2729,
      "cart": 2730,
      "lola": 2731,
      "successful": 2732,
      "##orge": 2733,
      "son": 2734,
      "walls": 2735,
      "fridge": 2736,
      "##edient": 2737,
      "fat": 2738,
      "lean": 2739,
      "dreams": 2740,
      "foolish": 2741,
      "fierce": 2742,
      "##laimed": 2743,
      "##ouses": 2744,
      "crayon": 2745,
      "sof": 2746,
      "rough": 2747,
      "cher": 2748,
      "shape": 2749,
      "exclaimed": 2750,
      "cro": 2751,
      "office": 2752,
      "shadow": 2753,
      "delicate": 2754,
      "frag": 2755,
      "suggested": 2756,
      "nosy": 2757,
      "icy": 2758,
      "wagon": 2759,
      "movie": 2760,
      "corn": 2761,
      "##ado": 2762,
      "competit": 2763,
      "tomato": 2764,
      "dead": 2765,
      "##omed": 2766,
      "rat": 2767,
      "space": 2768,
      "bounce": 2769,
      "nicely": 2770,
      "obedient": 2771,
      "##ention": 2772,
      "city": 2773,
      "mixed": 2774,
      "egg": 2775,
      "houses": 2776,
      "knows": 2777,
      "mem": 2778,
      "useful": 2779,
      "patch": 2780,
      "soar": 2781,
      "perform": 2782,
      "kinds": 2783,
      "wiped": 2784,
      "poured": 2785,
      "stove": 2786,
      "using": 2787,
      "locked": 2788,
      "notice": 2789,
      "crack": 2790,
      "clock": 2791,
      "falls": 2792,
      "tools": 2793,
      "shells": 2794,
      "fragile": 2795,
      "sounded": 2796,
      "enc": 2797,
      "fre": 2798,
      "##uth": 2799,
      "george": 2800,
      "##isted": 2801,
      "dough": 2802,
      "lights": 2803,
      "##atter": 2804,
      "##wards": 2805,
      "witch": 2806,
      "eng": 2807,
      "weal": 2808,
      "explored": 2809,
      "times": 2810,
      "resc": 2811,
      "rep": 2812,
      "bushes": 2813,
      "lab": 2814,
      "independ": 2815,
      "fountain": 2816,
      "low": 2817,
      "##dom": 2818,
      "spoiled": 2819,
      "dependable": 2820,
      "seem": 2821,
      "above": 2822,
      "print": 2823,
      "spinning": 2824,
      "showing": 2825,
      "bags": 2826,
      "unk": 2827,
      "stumbled": 2828,
      "rode": 2829,
      "jolly": 2830,
      "orig": 2831,
      "bees": 2832,
      "themselves": 2833,
      "thoughtful": 2834,
      "cleaning": 2835,
      "raced": 2836,
      "playful": 2837,
      "parrot": 2838,
      "##arth": 2839,
      "practice": 2840,
      "##inal": 2841,
      "smaller": 2842,
      "steal": 2843,
      "twig": 2844,
      "earth": 2845,
      "fingers": 2846,
      "built": 2847,
      "scrat": 2848,
      "delighted": 2849,
      "cam": 2850,
      "bitter": 2851,
      "##ines": 2852,
      "helm": 2853,
      "brightly": 2854,
      "enorm": 2855,
      "enormous": 2856,
      "tele": 2857,
      "reminded": 2858,
      "cop": 2859,
      "acorn": 2860,
      "kicked": 2861,
      "tummy": 2862,
      "gem": 2863,
      "handed": 2864,
      "admired": 2865,
      "##erry": 2866,
      "counted": 2867,
      "original": 2868,
      "independent": 2869,
      "solve": 2870,
      "ways": 2871,
      "shone": 2872,
      "ol": 2873,
      "roof": 2874,
      "changed": 2875,
      "angel": 2876,
      "toby": 2877,
      "##corn": 2878,
      "yet": 2879,
      "beak": 2880,
      "popcorn": 2881,
      "unkn": 2882,
      "loll": 2883,
      "##ience": 2884,
      "dont": 2885,
      "hammer": 2886,
      "hoop": 2887,
      "cone": 2888,
      "sniff": 2889,
      "dove": 2890,
      "mis": 2891,
      "whispered": 2892,
      "terrible": 2893,
      "moder": 2894,
      "bean": 2895,
      "stronger": 2896,
      "painted": 2897,
      "beep": 2898,
      "brace": 2899,
      "hairy": 2900,
      "umb": 2901,
      "serious": 2902,
      "chose": 2903,
      "umbre": 2904,
      "##ict": 2905,
      "##iable": 2906,
      "potato": 2907,
      "##anut": 2908,
      "peanut": 2909,
      "##ither": 2910,
      "tunn": 2911,
      "unknown": 2912,
      "##ipop": 2913,
      "lollipop": 2914,
      "mike": 2915,
      "reliable": 2916,
      "strugg": 2917,
      "dust": 2918,
      "sauce": 2919,
      "leaving": 2920,
      "joey": 2921,
      "allowed": 2922,
      "finding": 2923,
      "guard": 2924,
      "##ony": 2925,
      "clum": 2926,
      "wrap": 2927,
      "boats": 2928,
      "yuck": 2929,
      "pumpkin": 2930,
      "compa": 2931,
      "toast": 2932,
      "##uring": 2933,
      "joined": 2934,
      "##inary": 2935,
      "hay": 2936,
      "picking": 2937,
      "##iew": 2938,
      "##under": 2939,
      "##pid": 2940,
      "spring": 2941,
      "rubb": 2942,
      "dolphin": 2943,
      "salad": 2944,
      "thinking": 2945,
      "half": 2946,
      "tank": 2947,
      "view": 2948,
      "thunder": 2949,
      "##het": 2950,
      "##robe": 2951,
      "bump": 2952,
      "goose": 2953,
      "ing": 2954,
      "modern": 2955,
      "forth": 2956,
      "stupid": 2957,
      "post": 2958,
      "tor": 2959,
      "kay": 2960,
      "costum": 2961,
      "stamp": 2962,
      "regular": 2963,
      "barber": 2964,
      "cheap": 2965,
      "advice": 2966,
      "sink": 2967,
      "##aghet": 2968,
      "##aghetti": 2969,
      "spaghetti": 2970,
      "clumsy": 2971,
      "metal": 2972,
      "flex": 2973,
      "##tern": 2974,
      "gasped": 2975,
      "yarn": 2976,
      "diam": 2977,
      "diamond": 2978,
      "magn": 2979,
      "sleeping": 2980,
      "wealthy": 2981,
      "##com": 2982,
      "create": 2983,
      "andy": 2984,
      "polly": 2985,
      "twist": 2986,
      "compass": 2987,
      "tu": 2988,
      "##ilty": 2989,
      "guilty": 2990,
      "rub": 2991,
      "##par": 2992,
      "ingred": 2993,
      "ingredient": 2994,
      "marble": 2995,
      "##gu": 2996,
      "nobody": 2997,
      "friendship": 2998,
      "chirp": 2999,
      "telling": 3000,
      "stat": 3001,
      "march": 3002,
      "pirate": 3003,
      "##ipp": 3004,
      "rushed": 3005,
      "searching": 3006,
      "engine": 3007,
      "##ugged": 3008,
      "##ations": 3009,
      "nature": 3010,
      "crazy": 3011,
      "stairs": 3012,
      "driving": 3013,
      "zeb": 3014,
      "paul": 3015,
      "##shion": 3016,
      "kim": 3017,
      "fu": 3018,
      "zebra": 3019,
      "arrow": 3020,
      "dull": 3021,
      "mask": 3022,
      "sophie": 3023,
      "bull": 3024,
      "beet": 3025,
      "graceful": 3026,
      "missing": 3027,
      "flexible": 3028,
      "square": 3029,
      "speed": 3030,
      "popular": 3031,
      "jacket": 3032,
      "knock": 3033,
      "holds": 3034,
      "design": 3035,
      "shiver": 3036,
      "croco": 3037,
      "super": 3038,
      "dreaming": 3039,
      "reading": 3040,
      "umbrella": 3041,
      "carrying": 3042,
      "hen": 3043,
      "meal": 3044,
      "##io": 3045,
      "destro": 3046,
      "doesn": 3047,
      "deliver": 3048,
      "impressive": 3049,
      "washed": 3050,
      "crocod": 3051,
      "##irsty": 3052,
      "library": 3053,
      "shel": 3054,
      "camera": 3055,
      "pige": 3056,
      "truth": 3057,
      "careless": 3058,
      "butterflies": 3059,
      "stage": 3060,
      "seeds": 3061,
      "pebble": 3062,
      "sparkled": 3063,
      "##illa": 3064,
      "fresh": 3065,
      "compassion": 3066,
      "##umbers": 3067,
      "hurry": 3068,
      "tied": 3069,
      "prize": 3070,
      "imagined": 3071,
      "##ief": 3072,
      "comb": 3073,
      "ending": 3074,
      "bigg": 3075,
      "ingredients": 3076,
      "alex": 3077,
      "mole": 3078,
      "encou": 3079,
      "handle": 3080,
      "##ision": 3081,
      "reward": 3082,
      "swe": 3083,
      "##anger": 3084,
      "##ric": 3085,
      "opens": 3086,
      "enth": 3087,
      "rubbed": 3088,
      "wing": 3089,
      "rece": 3090,
      "pepper": 3091,
      "load": 3092,
      "order": 3093,
      "early": 3094,
      "mailbox": 3095,
      "stranger": 3096,
      "persist": 3097,
      "poppy": 3098,
      "cryst": 3099,
      "##apped": 3100,
      "spilled": 3101,
      "discover": 3102,
      "yay": 3103,
      "envel": 3104,
      "gum": 3105,
      "##usi": 3106,
      "pattern": 3107,
      "enthusi": 3108,
      "temp": 3109,
      "charl": 3110,
      "##fish": 3111,
      "flashlight": 3112,
      "humble": 3113,
      "wheels": 3114,
      "wire": 3115,
      "desk": 3116,
      "pow": 3117,
      "fork": 3118,
      "thirsty": 3119,
      "pengu": 3120,
      "nurse": 3121,
      "numbers": 3122,
      "bracelet": 3123,
      "shocked": 3124,
      "cooking": 3125,
      "agree": 3126,
      "rug": 3127,
      "##time": 3128,
      "cere": 3129,
      "surf": 3130,
      "##ibb": 3131,
      "object": 3132,
      "env": 3133,
      "peeked": 3134,
      "torn": 3135,
      "uncom": 3136,
      "anx": 3137,
      "ahead": 3138,
      "pup": 3139,
      "badly": 3140,
      "warned": 3141,
      "##up": 3142,
      "comput": 3143,
      "travel": 3144,
      "ja": 3145,
      "uncomfortable": 3146,
      "##reen": 3147,
      "##bled": 3148,
      "pant": 3149,
      "sorts": 3150,
      "intell": 3151,
      "compl": 3152,
      "lau": 3153,
      "intellig": 3154,
      "statue": 3155,
      "bent": 3156,
      "scale": 3157,
      "anxious": 3158,
      "raven": 3159,
      "pale": 3160,
      "placed": 3161,
      "counting": 3162,
      "growing": 3163,
      "shut": 3164,
      "sunflower": 3165,
      "crane": 3166,
      "spoke": 3167,
      "beetle": 3168,
      "mush": 3169,
      "value": 3170,
      "towers": 3171,
      "dea": 3172,
      "nail": 3173,
      "complet": 3174,
      "biggest": 3175,
      "##iches": 3176,
      "older": 3177,
      "note": 3178,
      "deaf": 3179,
      "slides": 3180,
      "windows": 3181,
      "celebrate": 3182,
      "harmless": 3183,
      "crocodile": 3184,
      "gloom": 3185,
      "scatter": 3186,
      "couldnt": 3187,
      "stack": 3188,
      "scoot": 3189,
      "flute": 3190,
      "tunnel": 3191,
      "univer": 3192,
      "cupboard": 3193,
      "yaw": 3194,
      "persistent": 3195,
      "gh": 3196,
      "ghost": 3197,
      "beauty": 3198,
      "matt": 3199,
      "trick": 3200,
      "stops": 3201,
      "gifted": 3202,
      "fort": 3203,
      "muff": 3204,
      "perm": 3205,
      "charming": 3206,
      "exper": 3207,
      "cereal": 3208,
      "flour": 3209,
      "ordinary": 3210,
      "aid": 3211,
      "refused": 3212,
      "pian": 3213,
      "hung": 3214,
      "spi": 3215,
      "destroy": 3216,
      "brownie": 3217,
      "tur": 3218,
      "question": 3219,
      "carto": 3220,
      "quack": 3221,
      "skip": 3222,
      "curt": 3223,
      "base": 3224,
      "##ices": 3225,
      "pony": 3226,
      "send": 3227,
      "sett": 3228,
      "camp": 3229,
      "##een": 3230,
      "pretending": 3231,
      "buddy": 3232,
      "han": 3233,
      "neat": 3234,
      "triang": 3235,
      "courage": 3236,
      "snuggled": 3237,
      "blueber": 3238,
      "track": 3239,
      "piano": 3240,
      "lively": 3241,
      "chasing": 3242,
      "sandwiches": 3243,
      "curtain": 3244,
      "lizard": 3245,
      "gloomy": 3246,
      "##used": 3247,
      "oct": 3248,
      "crystal": 3249,
      "si": 3250,
      "hunter": 3251,
      "sofa": 3252,
      "envelope": 3253,
      "octop": 3254,
      "package": 3255,
      "ot": 3256,
      "octopus": 3257,
      "sandy": 3258,
      "collar": 3259,
      "crawl": 3260,
      "computer": 3261,
      "names": 3262,
      "ignor": 3263,
      "parade": 3264,
      "tweetie": 3265,
      "vi": 3266,
      "mushroom": 3267,
      "intelligent": 3268,
      "##ocer": 3269,
      "alert": 3270,
      "drawer": 3271,
      "creatures": 3272,
      "bri": 3273,
      "repe": 3274,
      "jumps": 3275,
      "station": 3276,
      "rules": 3277,
      "soldier": 3278,
      "miser": 3279,
      "miserable": 3280,
      "ignorant": 3281,
      "disg": 3282,
      "helmet": 3283,
      "twirled": 3284,
      "disgust": 3285,
      "##ceed": 3286,
      "needle": 3287,
      "##ses": 3288,
      "jet": 3289,
      "##pers": 3290,
      "cocoa": 3291,
      "shaking": 3292,
      "task": 3293,
      "anywhere": 3294,
      "seal": 3295,
      "bicy": 3296,
      "jerry": 3297,
      "trap": 3298,
      "gir": 3299,
      "##aches": 3300,
      "henry": 3301,
      "attract": 3302,
      "dug": 3303,
      "thief": 3304,
      "carp": 3305,
      "fireman": 3306,
      "##ith": 3307,
      "five": 3308,
      "##iest": 3309,
      "tooth": 3310,
      "practiced": 3311,
      "ener": 3312,
      "pigeon": 3313,
      "charlie": 3314,
      "bandage": 3315,
      "helpless": 3316,
      "##stri": 3317,
      "chu": 3318,
      "phot": 3319,
      "pasta": 3320,
      "led": 3321,
      "vide": 3322,
      "ostri": 3323,
      "vroom": 3324,
      "cap": 3325,
      "turkey": 3326,
      "giraff": 3327,
      "cricket": 3328,
      "shine": 3329,
      "compassionate": 3330,
      "jeep": 3331,
      "bounced": 3332,
      "chubby": 3333,
      "##kers": 3334,
      "trump": 3335,
      "annie": 3336,
      "radio": 3337,
      "stretch": 3338,
      "##cond": 3339,
      "##cut": 3340,
      "otter": 3341,
      "everyday": 3342,
      "second": 3343,
      "##oe": 3344,
      "impat": 3345,
      "sin": 3346,
      "trash": 3347,
      "papa": 3348,
      "club": 3349,
      "##urb": 3350,
      "tire": 3351,
      "thread": 3352,
      "screen": 3353,
      "succeed": 3354,
      "leash": 3355,
      "case": 3356,
      "decorate": 3357,
      "##keys": 3358,
      "attractive": 3359,
      "##orable": 3360,
      "disturb": 3361,
      "letters": 3362,
      "gor": 3363,
      "pun": 3364,
      "waff": 3365,
      "hipp": 3366,
      "stirred": 3367,
      "competitive": 3368,
      "impatient": 3369,
      "stretched": 3370,
      "wishes": 3371,
      "spir": 3372,
      "##heart": 3373,
      "further": 3374,
      "quar": 3375,
      "allig": 3376,
      "chance": 3377,
      "brighter": 3378,
      "era": 3379,
      "cube": 3380,
      "hed": 3381,
      "anyway": 3382,
      "troubled": 3383,
      "##gie": 3384,
      "steps": 3385,
      "disgusting": 3386,
      "stickers": 3387,
      "pants": 3388,
      "attic": 3389,
      "somewhere": 3390,
      "sweetheart": 3391,
      "dess": 3392,
      "adorable": 3393,
      "broc": 3394,
      "restless": 3395,
      "aftern": 3396,
      "jug": 3397,
      "broccol": 3398,
      "afternoon": 3399,
      "comfort": 3400,
      "lilly": 3401,
      "mug": 3402,
      "itself": 3403,
      "broccoli": 3404,
      "##arian": 3405,
      "##az": 3406,
      "candle": 3407,
      "restaur": 3408,
      "shoe": 3409,
      "carpet": 3410,
      "restaurant": 3411,
      "trumpet": 3412,
      "ten": 3413,
      "fearful": 3414,
      "nuts": 3415,
      "##ac": 3416,
      "distant": 3417,
      "whiskers": 3418,
      "ants": 3419,
      "cooked": 3420,
      "envious": 3421,
      "pressed": 3422,
      "tray": 3423,
      "filthy": 3424,
      "leop": 3425,
      "danny": 3426,
      "respectful": 3427,
      "##night": 3428,
      "nowhere": 3429,
      "helic": 3430,
      "##opter": 3431,
      "helicopter": 3432,
      "enthusiastic": 3433,
      "vine": 3434,
      "kang": 3435,
      "summer": 3436,
      "screw": 3437,
      "monkeys": 3438,
      "spirit": 3439,
      "hook": 3440,
      "##aroo": 3441,
      "listening": 3442,
      "kangaroo": 3443,
      "dear": 3444,
      "paws": 3445,
      "pipe": 3446,
      "batht": 3447,
      "lightning": 3448,
      "ostrich": 3449,
      "harsh": 3450,
      "repair": 3451,
      "bathtub": 3452,
      "ribb": 3453,
      "zi": 3454,
      "por": 3455,
      "poem": 3456,
      "spell": 3457,
      "starts": 3458,
      "cards": 3459,
      "melt": 3460,
      "unpack": 3461,
      "meas": 3462,
      "giggle": 3463,
      "vol": 3464,
      "mim": 3465,
      "##case": 3466,
      "belt": 3467,
      "explain": 3468,
      "admire": 3469,
      "bicycle": 3470,
      "cows": 3471,
      "firework": 3472,
      "panda": 3473,
      "sent": 3474,
      "barking": 3475,
      "scooter": 3476,
      "##ips": 3477,
      "separ": 3478,
      "math": 3479,
      "aer": 3480,
      "comet": 3481,
      "backpack": 3482,
      "country": 3483,
      "##opl": 3484,
      "##cycle": 3485,
      "aeropl": 3486,
      "shouts": 3487,
      "speak": 3488,
      "happier": 3489,
      "quite": 3490,
      "sandbox": 3491,
      "##stairs": 3492,
      "gorilla": 3493,
      "wheat": 3494,
      "message": 3495,
      "mimi": 3496,
      "fle": 3497,
      "maria": 3498,
      "pilot": 3499,
      "viol": 3500,
      "impro": 3501,
      "yogurt": 3502,
      "leopard": 3503,
      "squash": 3504,
      "modest": 3505,
      "jellyfish": 3506,
      "jess": 3507,
      "hippo": 3508,
      "batt": 3509,
      "didnt": 3510,
      "lee": 3511,
      "obser": 3512,
      "lid": 3513,
      "meat": 3514,
      "harry": 3515,
      "alligator": 3516,
      "support": 3517,
      "ur": 3518,
      "sort": 3519,
      "dessert": 3520,
      "##hood": 3521,
      "millie": 3522,
      "forgave": 3523,
      "stared": 3524,
      "kate": 3525,
      "oat": 3526,
      "cats": 3527,
      "hedge": 3528,
      "breat": 3529,
      "given": 3530,
      "rescue": 3531,
      "split": 3532,
      "shade": 3533,
      "tripped": 3534,
      "melon": 3535,
      "cact": 3536,
      "mule": 3537,
      "pal": 3538,
      "bears": 3539,
      "##can": 3540,
      "paid": 3541,
      "prov": 3542,
      "riding": 3543,
      "salt": 3544,
      "rice": 3545,
      "swinging": 3546,
      "organize": 3547,
      "size": 3548,
      "human": 3549,
      "purse": 3550,
      "mild": 3551,
      "##xi": 3552,
      "inse": 3553,
      "bin": 3554,
      "sle": 3555,
      "however": 3556,
      "bananas": 3557,
      "ped": 3558,
      "hall": 3559,
      "##ci": 3560,
      "##ogn": 3561,
      "starting": 3562,
      "violin": 3563,
      "raft": 3564,
      "triangle": 3565,
      "tuna": 3566,
      "behave": 3567,
      "recogn": 3568,
      "sheet": 3569,
      "sock": 3570,
      "roared": 3571,
      "holes": 3572,
      "##bul": 3573,
      "pushing": 3574,
      "twink": 3575,
      "volcan": 3576,
      "cactus": 3577,
      "##ophone": 3578,
      "silver": 3579,
      "haircut": 3580,
      "grabs": 3581,
      "rod": 3582,
      "volcano": 3583,
      "brus": 3584,
      "finds": 3585,
      "chalk": 3586,
      "lions": 3587,
      "strawberry": 3588,
      "energy": 3589,
      "##seum": 3590,
      "bikes": 3591,
      "museum": 3592,
      "cel": 3593,
      "boots": 3594,
      "knot": 3595,
      "##ebook": 3596,
      "notebook": 3597,
      "evening": 3598,
      "ended": 3599,
      "seeing": 3600,
      "pole": 3601,
      "##aled": 3602,
      "either": 3603,
      "scold": 3604,
      "chain": 3605,
      "avoc": 3606,
      "porch": 3607,
      "##chan": 3608,
      "##chy": 3609,
      "lend": 3610,
      "jokes": 3611,
      "rolling": 3612,
      "imagine": 3613,
      "appre": 3614,
      "palace": 3615,
      "steak": 3616,
      "wallet": 3617,
      "pulls": 3618,
      "climbing": 3619,
      "sweater": 3620,
      "lear": 3621,
      "learnt": 3622,
      "resist": 3623,
      "##ucked": 3624,
      "ins": 3625,
      "laund": 3626,
      "taxi": 3627,
      "##urch": 3628,
      "judge": 3629,
      "appreci": 3630,
      "comf": 3631,
      "pit": 3632,
      "prun": 3633,
      "reind": 3634,
      "reinde": 3635,
      "frowned": 3636,
      "magnet": 3637,
      "trains": 3638,
      "laundry": 3639,
      "pad": 3640,
      "barrel": 3641,
      "rever": 3642,
      "ink": 3643,
      "goal": 3644,
      "putting": 3645,
      "shopkeeper": 3646,
      "since": 3647,
      "unlock": 3648,
      "tony": 3649,
      "saus": 3650,
      "james": 3651,
      "penguin": 3652,
      "micr": 3653,
      "visited": 3654,
      "hive": 3655,
      "##form": 3656,
      "oy": 3657,
      "drawings": 3658,
      "falling": 3659,
      "quarrel": 3660,
      "sprink": 3661,
      "##ooped": 3662,
      "papers": 3663,
      "rhin": 3664,
      "clapping": 3665,
      "##ffee": 3666,
      "shrimp": 3667,
      "sailor": 3668,
      "##iling": 3669,
      "ambul": 3670,
      "tricks": 3671,
      "shield": 3672,
      "##icer": 3673,
      "sticker": 3674,
      "shelter": 3675,
      "##me": 3676,
      "zoomed": 3677,
      "neighbour": 3678,
      "##play": 3679,
      "marry": 3680,
      "avail": 3681,
      "airport": 3682,
      "disc": 3683,
      "coffee": 3684,
      "celery": 3685,
      "tube": 3686,
      "thats": 3687,
      "reindeer": 3688,
      "display": 3689,
      "troph": 3690,
      "microphone": 3691,
      "wool": 3692,
      "alive": 3693,
      "##uli": 3694,
      "winter": 3695,
      "apologized": 3696,
      "leaned": 3697,
      "##cast": 3698,
      "smells": 3699,
      "marched": 3700,
      "peek": 3701,
      "rubber": 3702,
      "ambulance": 3703,
      "dive": 3704,
      "softly": 3705,
      "herb": 3706,
      "sandcast": 3707,
      "shakes": 3708,
      "colours": 3709,
      "film": 3710,
      "checked": 3711,
      "available": 3712,
      "pair": 3713,
      "dishes": 3714,
      "polish": 3715,
      "spike": 3716,
      "belongs": 3717,
      "aeroplane": 3718,
      "mechan": 3719,
      "ske": 3720,
      "fields": 3721,
      "mechanic": 3722,
      "costume": 3723,
      "smith": 3724,
      "yach": 3725,
      "incl": 3726,
      "maggie": 3727,
      "basketball": 3728,
      "loop": 3729,
      "shovel": 3730,
      "sir": 3731,
      "skill": 3732,
      "hoping": 3733,
      "elev": 3734,
      "grapes": 3735,
      "fisher": 3736,
      "planet": 3737,
      "baking": 3738,
      "eraser": 3739,
      "bul": 3740,
      "medal": 3741,
      "quit": 3742,
      "soil": 3743,
      "stom": 3744,
      "pushes": 3745,
      "##very": 3746,
      "tap": 3747,
      "short": 3748,
      "kat": 3749,
      "onion": 3750,
      "trophy": 3751,
      "raining": 3752,
      "insect": 3753,
      "art": 3754,
      "perfectly": 3755,
      "##nam": 3756,
      "##ense": 3757,
      "##ages": 3758,
      "elevator": 3759,
      "player": 3760,
      "##happy": 3761,
      "complete": 3762,
      "yacht": 3763,
      "ray": 3764,
      "unhappy": 3765,
      "minute": 3766,
      "church": 3767,
      "magaz": 3768,
      "god": 3769,
      "feelings": 3770,
      "closely": 3771,
      "diary": 3772,
      "journal": 3773,
      "men": 3774,
      "glove": 3775,
      "tut": 3776,
      "yoga": 3777,
      "fog": 3778,
      "coal": 3779,
      "frogs": 3780,
      "mos": 3781,
      "bulb": 3782,
      "disag": 3783,
      "page": 3784,
      "freez": 3785,
      "cord": 3786,
      "hadn": 3787,
      "eagerly": 3788,
      "##inking": 3789,
      "##eath": 3790,
      "golf": 3791,
      "##quit": 3792,
      "mosquit": 3793,
      "clara": 3794,
      "stuffed": 3795,
      "vend": 3796,
      "cardboard": 3797,
      "wife": 3798,
      "football": 3799,
      "cauli": 3800,
      "furn": 3801,
      "sunset": 3802,
      "barks": 3803,
      "##iture": 3804,
      "furniture": 3805,
      "bree": 3806,
      "oil": 3807,
      "factor": 3808,
      "drops": 3809,
      "treasures": 3810,
      "mosquito": 3811,
      "tub": 3812,
      "knob": 3813,
      "skull": 3814,
      "lie": 3815,
      "imagination": 3816,
      "cooler": 3817,
      "peach": 3818,
      "##gen": 3819,
      "switch": 3820,
      "flies": 3821,
      "headed": 3822,
      "shouldn": 3823,
      "factory": 3824,
      "flame": 3825,
      "offer": 3826,
      "##ween": 3827,
      "counter": 3828,
      "between": 3829,
      "hotel": 3830,
      "##place": 3831,
      "rag": 3832,
      "frame": 3833,
      "blowing": 3834,
      "jul": 3835,
      "ornam": 3836,
      "ornament": 3837,
      "giraffe": 3838,
      "skelet": 3839,
      "boo": 3840,
      "sung": 3841,
      "rele": 3842,
      "cauliflower": 3843,
      "hut": 3844,
      "mop": 3845,
      "disappear": 3846,
      "motorcycle": 3847,
      "painter": 3848,
      "rot": 3849,
      "##zzy": 3850,
      "cushion": 3851,
      "hors": 3852,
      "rhinocer": 3853,
      "rhinoceros": 3854,
      "rosie": 3855,
      "fisherman": 3856,
      "swung": 3857,
      "##right": 3858,
      "shouting": 3859,
      "breaks": 3860,
      "##ories": 3861,
      "laser": 3862,
      "cups": 3863,
      "fishing": 3864,
      "video": 3865,
      "cheek": 3866,
      "vendor": 3867,
      "battery": 3868,
      "soc": 3869,
      "##rect": 3870,
      "folder": 3871,
      "##bol": 3872,
      "wipe": 3873,
      "created": 3874,
      "pirates": 3875,
      "soccer": 3876,
      "mixer": 3877,
      "cable": 3878,
      "sym": 3879,
      "symbol": 3880,
      "attention": 3881,
      "slept": 3882,
      "poke": 3883,
      "anch": 3884,
      "popped": 3885,
      "luckily": 3886,
      "powder": 3887,
      "jazz": 3888,
      "##ides": 3889,
      "weather": 3890,
      "gear": 3891,
      "##sses": 3892,
      "alright": 3893,
      "##angu": 3894,
      "stud": 3895,
      "langu": 3896,
      "##loo": 3897,
      "surre": 3898,
      "iron": 3899,
      "surrender": 3900,
      "horses": 3901,
      "capt": 3902,
      "##uc": 3903,
      "maze": 3904,
      "heads": 3905,
      "accep": 3906,
      "flea": 3907,
      "##rod": 3908,
      "greed": 3909,
      "vet": 3910,
      "kingdom": 3911,
      "forgotten": 3912,
      "tutor": 3913,
      "introd": 3914,
      "swamp": 3915,
      "squirrels": 3916,
      "celebrated": 3917,
      "##unately": 3918,
      "point": 3919,
      "##izes": 3920,
      "pine": 3921,
      "sub": 3922,
      "skeleton": 3923,
      "encoura": 3924,
      "mistakes": 3925,
      "tina": 3926,
      "igloo": 3927,
      "glowing": 3928,
      "throws": 3929,
      "surround": 3930,
      "lives": 3931,
      "complain": 3932,
      "##lasses": 3933,
      "batter": 3934,
      "sunglasses": 3935,
      "trail": 3936,
      "fireplace": 3937,
      "vest": 3938,
      "##ckey": 3939,
      "hockey": 3940,
      "breeze": 3941,
      "ax": 3942,
      "anchor": 3943,
      "waving": 3944,
      "sneak": 3945,
      "reve": 3946,
      "claw": 3947,
      "ga": 3948,
      "baseball": 3949,
      "##hero": 3950,
      "superhero": 3951,
      "seas": 3952,
      "parent": 3953,
      "memories": 3954,
      "streng": 3955,
      "photo": 3956,
      "ceiling": 3957,
      "miner": 3958,
      "petals": 3959,
      "##ache": 3960,
      "slipp": 3961,
      "micro": 3962,
      "bury": 3963,
      "eaten": 3964,
      "hanging": 3965,
      "##chie": 3966,
      "strength": 3967,
      "snowy": 3968,
      "dancer": 3969,
      "doggy": 3970,
      "##vent": 3971,
      "points": 3972,
      "##ney": 3973,
      "during": 3974,
      "temple": 3975,
      "zipper": 3976,
      "discu": 3977,
      "musician": 3978,
      "newsp": 3979,
      "puddles": 3980,
      "newspap": 3981,
      "##ef": 3982,
      "bang": 3983,
      "microsc": 3984,
      "trave": 3985,
      "staff": 3986,
      "chickens": 3987,
      "cob": 3988,
      "radish": 3989,
      "grin": 3990,
      "novel": 3991,
      "writing": 3992,
      "uniform": 3993,
      "chess": 3994,
      "theater": 3995,
      "argue": 3996,
      "golden": 3997,
      "sniffed": 3998,
      "napkin": 3999,
      "invest": 4000,
      "microscope": 4001,
      "greedy": 4002,
      "meeting": 4003,
      "##chair": 4004,
      "avocado": 4005,
      "investig": 4006,
      "lotion": 4007,
      "shoulder": 4008,
      "bouncing": 4009,
      "axe": 4010,
      "lime": 4011,
      "throwing": 4012,
      "##erc": 4013,
      "pist": 4014,
      "##medi": 4015,
      "kayak": 4016,
      "immedi": 4017,
      "quietly": 4018,
      "news": 4019,
      "freezer": 4020,
      "pistol": 4021,
      "welcomed": 4022,
      "immediately": 4023,
      "exerc": 4024,
      "##aking": 4025,
      "spear": 4026,
      "##ssible": 4027,
      "wigg": 4028,
      "flapped": 4029,
      "slippery": 4030,
      "vall": 4031,
      "accepted": 4032,
      "myst": 4033,
      "mattress": 4034,
      "##web": 4035,
      "##ipping": 4036,
      "crib": 4037,
      "suff": 4038,
      "oyster": 4039,
      "armchair": 4040,
      "skirt": 4041,
      "sailing": 4042,
      "isn": 4043,
      "doors": 4044,
      "lawy": 4045,
      "plastic": 4046,
      "fought": 4047,
      "##reek": 4048,
      "cobweb": 4049,
      "creek": 4050,
      "makeup": 4051,
      "yield": 4052,
      "investigate": 4053,
      "##house": 4054,
      "sticky": 4055,
      "mystery": 4056,
      "##te": 4057,
      "weigh": 4058,
      "oak": 4059,
      "cared": 4060,
      "##arm": 4061,
      "reef": 4062,
      "cub": 4063,
      "beef": 4064,
      "##ison": 4065,
      "yum": 4066,
      "freddy": 4067,
      "fauc": 4068,
      "chim": 4069,
      "toil": 4070,
      "prevent": 4071,
      "appla": 4072,
      "ticket": 4073,
      "##esday": 4074,
      "worth": 4075,
      "regret": 4076,
      "moves": 4077,
      "cherries": 4078,
      "##inked": 4079,
      "tip": 4080,
      "splashing": 4081,
      "##ler": 4082,
      "magazine": 4083,
      "passport": 4084,
      "faucet": 4085,
      "applaud": 4086,
      "##was": 4087,
      "separate": 4088,
      "collected": 4089,
      "sprayed": 4090,
      "mint": 4091,
      "entered": 4092,
      "toilet": 4093,
      "alarm": 4094,
      "muffin": 4095
    }
  }
}